unsigned char load_model_tflite[] = {
  0x1c, 0x00, 0x00, 0x00, 0x54, 0x46, 0x4c, 0x33, 0x14, 0x00, 0x20, 0x00,
  0x1c, 0x00, 0x18, 0x00, 0x14, 0x00, 0x10, 0x00, 0x0c, 0x00, 0x00, 0x00,
  0x08, 0x00, 0x04, 0x00, 0x14, 0x00, 0x00, 0x00, 0x1c, 0x00, 0x00, 0x00,
  0x90, 0x00, 0x00, 0x00, 0xe8, 0x00, 0x00, 0x00, 0x70, 0x05, 0x00, 0x00,
  0x80, 0x05, 0x00, 0x00, 0x78, 0x0a, 0x00, 0x00, 0x03, 0x00, 0x00, 0x00,
  0x01, 0x00, 0x00, 0x00, 0x10, 0x00, 0x00, 0x00, 0x00, 0x00, 0x0a, 0x00,
  0x10, 0x00, 0x0c, 0x00, 0x08, 0x00, 0x04, 0x00, 0x0a, 0x00, 0x00, 0x00,
  0x0c, 0x00, 0x00, 0x00, 0x1c, 0x00, 0x00, 0x00, 0x38, 0x00, 0x00, 0x00,
  0x0f, 0x00, 0x00, 0x00, 0x73, 0x65, 0x72, 0x76, 0x69, 0x6e, 0x67, 0x5f,
  0x64, 0x65, 0x66, 0x61, 0x75, 0x6c, 0x74, 0x00, 0x01, 0x00, 0x00, 0x00,
  0x04, 0x00, 0x00, 0x00, 0x98, 0xff, 0xff, 0xff, 0x09, 0x00, 0x00, 0x00,
  0x04, 0x00, 0x00, 0x00, 0x07, 0x00, 0x00, 0x00, 0x64, 0x65, 0x6e, 0x73,
  0x65, 0x5f, 0x32, 0x00, 0x01, 0x00, 0x00, 0x00, 0x04, 0x00, 0x00, 0x00,
  0x3a, 0xfb, 0xff, 0xff, 0x04, 0x00, 0x00, 0x00, 0x0b, 0x00, 0x00, 0x00,
  0x64, 0x65, 0x6e, 0x73, 0x65, 0x5f, 0x69, 0x6e, 0x70, 0x75, 0x74, 0x00,
  0x02, 0x00, 0x00, 0x00, 0x34, 0x00, 0x00, 0x00, 0x04, 0x00, 0x00, 0x00,
  0xdc, 0xff, 0xff, 0xff, 0x0c, 0x00, 0x00, 0x00, 0x04, 0x00, 0x00, 0x00,
  0x13, 0x00, 0x00, 0x00, 0x43, 0x4f, 0x4e, 0x56, 0x45, 0x52, 0x53, 0x49,
  0x4f, 0x4e, 0x5f, 0x4d, 0x45, 0x54, 0x41, 0x44, 0x41, 0x54, 0x41, 0x00,
  0x08, 0x00, 0x0c, 0x00, 0x08, 0x00, 0x04, 0x00, 0x08, 0x00, 0x00, 0x00,
  0x0b, 0x00, 0x00, 0x00, 0x04, 0x00, 0x00, 0x00, 0x13, 0x00, 0x00, 0x00,
  0x6d, 0x69, 0x6e, 0x5f, 0x72, 0x75, 0x6e, 0x74, 0x69, 0x6d, 0x65, 0x5f,
  0x76, 0x65, 0x72, 0x73, 0x69, 0x6f, 0x6e, 0x00, 0x0d, 0x00, 0x00, 0x00,
  0x84, 0x04, 0x00, 0x00, 0x7c, 0x04, 0x00, 0x00, 0x4c, 0x04, 0x00, 0x00,
  0x2c, 0x04, 0x00, 0x00, 0xe0, 0x03, 0x00, 0x00, 0xe0, 0x02, 0x00, 0x00,
  0xf0, 0x00, 0x00, 0x00, 0xa0, 0x00, 0x00, 0x00, 0x98, 0x00, 0x00, 0x00,
  0x90, 0x00, 0x00, 0x00, 0x88, 0x00, 0x00, 0x00, 0x68, 0x00, 0x00, 0x00,
  0x04, 0x00, 0x00, 0x00, 0xe6, 0xfb, 0xff, 0xff, 0x04, 0x00, 0x00, 0x00,
  0x54, 0x00, 0x00, 0x00, 0x0c, 0x00, 0x00, 0x00, 0x08, 0x00, 0x0e, 0x00,
  0x08, 0x00, 0x04, 0x00, 0x08, 0x00, 0x00, 0x00, 0x10, 0x00, 0x00, 0x00,
  0x24, 0x00, 0x00, 0x00, 0x00, 0x00, 0x06, 0x00, 0x08, 0x00, 0x04, 0x00,
  0x06, 0x00, 0x00, 0x00, 0x04, 0x00, 0x00, 0x00, 0x00, 0x00, 0x00, 0x00,
  0x00, 0x00, 0x0a, 0x00, 0x10, 0x00, 0x0c, 0x00, 0x08, 0x00, 0x04, 0x00,
  0x0a, 0x00, 0x00, 0x00, 0x02, 0x00, 0x00, 0x00, 0x02, 0x00, 0x00, 0x00,
  0x04, 0x00, 0x00, 0x00, 0x06, 0x00, 0x00, 0x00, 0x32, 0x2e, 0x31, 0x34,
  0x2e, 0x30, 0x00, 0x00, 0x46, 0xfc, 0xff, 0xff, 0x04, 0x00, 0x00, 0x00,
  0x10, 0x00, 0x00, 0x00, 0x31, 0x2e, 0x35, 0x2e, 0x30, 0x00, 0x00, 0x00,
  0x00, 0x00, 0x00, 0x00, 0x00, 0x00, 0x00, 0x00, 0x50, 0xf7, 0xff, 0xff,
  0x54, 0xf7, 0xff, 0xff, 0x58, 0xf7, 0xff, 0xff, 0x6e, 0xfc, 0xff, 0xff,
  0x04, 0x00, 0x00, 0x00, 0x40, 0x00, 0x00, 0x00, 0xff, 0xa1, 0xa9, 0x3f,
  0x57, 0x32, 0x97, 0xbf, 0xf1, 0x56, 0x3f, 0x40, 0xfc, 0xb5, 0x50, 0x3f,
  0xe2, 0xee, 0x5b, 0xbf, 0x53, 0x31, 0xe7, 0xbf, 0xfe, 0xff, 0x09, 0xbf,
  0x37, 0xd5, 0xc8, 0xbe, 0x47, 0xe9, 0x23, 0xbf, 0xfb, 0xd0, 0xdd, 0xbd,
  0xfb, 0x30, 0x1e, 0xc0, 0xc5, 0x35, 0x91, 0xbf, 0x71, 0xef, 0x89, 0x3f,
  0xc1, 0x6b, 0x58, 0x3f, 0x9d, 0x64, 0xa7, 0x3f, 0x23, 0xbe, 0x9e, 0x3f,
  0xba, 0xfc, 0xff, 0xff, 0x04, 0x00, 0x00, 0x00, 0xe0, 0x01, 0x00, 0x00,
  0xd5, 0x13, 0x9f, 0x3e, 0x9b, 0x8c, 0xec, 0xbe, 0xaa, 0x23, 0xfe, 0xbe,
  0xeb, 0x6e, 0x17, 0x3f, 0xfc, 0xd4, 0x1c, 0x3f, 0xd9, 0xcd, 0x09, 0xbf,
  0x5f, 0x63, 0xe0, 0xbe, 0x5b, 0x36, 0x22, 0xbe, 0x11, 0xec, 0xe8, 0xbe,
  0x0e, 0xef, 0xa8, 0x3e, 0x6e, 0xf8, 0xc6, 0x3d, 0xc1, 0xb0, 0xcf, 0x3c,
  0x85, 0x96, 0x2e, 0x3f, 0x02, 0x99, 0x01, 0xbe, 0xa1, 0x7a, 0x11, 0x40,
  0x3b, 0xea, 0x9a, 0x3d, 0xe6, 0xee, 0x06, 0x3f, 0xc5, 0xf7, 0xb4, 0x3e,
  0xbb, 0x87, 0x05, 0x3f, 0xc1, 0x54, 0x79, 0xbd, 0xf1, 0xa0, 0xdb, 0xbe,
  0x0c, 0x09, 0xd7, 0xbf, 0x37, 0x77, 0x05, 0xbe, 0x4d, 0x1b, 0x48, 0xbf,
  0x0d, 0xce, 0xd8, 0xbf, 0xa1, 0x33, 0x2d, 0x3d, 0xec, 0x6c, 0x9e, 0x3e,
  0xc7, 0xe5, 0xd7, 0x3e, 0xe9, 0x56, 0x2b, 0x3f, 0xac, 0x3a, 0x50, 0x3e,
  0xfe, 0x54, 0x36, 0xbf, 0x78, 0xa4, 0x96, 0xbe, 0x83, 0x55, 0x7b, 0xbe,
  0xb7, 0xaf, 0x32, 0xbf, 0x89, 0x71, 0xdc, 0x3e, 0xd4, 0x62, 0x1a, 0xbf,
  0x9d, 0x0d, 0x19, 0x3f, 0xa1, 0xa7, 0xd2, 0xbe, 0x97, 0x94, 0x3b, 0xbe,
  0xb7, 0x15, 0x45, 0x3e, 0xc2, 0x48, 0x20, 0xbf, 0x9f, 0x48, 0x32, 0xc0,
  0x49, 0x20, 0x10, 0x3e, 0x7c, 0xb3, 0x82, 0x3f, 0x44, 0x18, 0x23, 0x40,
  0xdb, 0x73, 0xc6, 0x3e, 0x8e, 0xa6, 0x40, 0x3f, 0x2e, 0x8a, 0xd5, 0x3d,
  0xf0, 0x8b, 0x17, 0x3e, 0x01, 0xaf, 0xd0, 0xbe, 0xc7, 0xca, 0xfe, 0x3e,
  0xa4, 0x18, 0x6b, 0x3e, 0x1b, 0x9e, 0xc4, 0x3e, 0x4a, 0x19, 0x1a, 0xbf,
  0x44, 0x00, 0x0d, 0x3e, 0x8d, 0xac, 0x59, 0xbe, 0xfd, 0xbb, 0x57, 0x3e,
  0xc5, 0x73, 0xab, 0xbe, 0x10, 0x54, 0x97, 0xbf, 0x1f, 0x59, 0xf2, 0x3e,
  0x9c, 0xc6, 0x3b, 0xbe, 0x25, 0x18, 0xe8, 0x3e, 0xf2, 0xa4, 0x34, 0x3f,
  0xa0, 0x8c, 0xa9, 0x3d, 0xfd, 0x01, 0xa5, 0xbf, 0x04, 0x9b, 0xb7, 0xbe,
  0xc6, 0xa1, 0x90, 0x3f, 0xf2, 0xca, 0xb6, 0xbe, 0x24, 0x41, 0xc3, 0x3e,
  0x14, 0x0a, 0x4b, 0xbf, 0xdd, 0xf5, 0xd4, 0x3d, 0xa5, 0x72, 0xc9, 0x3d,
  0x28, 0xd6, 0x6b, 0x3e, 0x1f, 0x77, 0xce, 0xbd, 0x6a, 0x8c, 0xee, 0xbf,
  0x58, 0x86, 0xd7, 0x3e, 0xa6, 0x6e, 0x5a, 0xbf, 0x94, 0xb0, 0xfe, 0xbd,
  0x7d, 0x92, 0x5a, 0xbf, 0xd3, 0x24, 0x42, 0x3e, 0xda, 0x3f, 0xc8, 0x3e,
  0xc8, 0xd3, 0xf6, 0xbe, 0x14, 0x35, 0x91, 0xbe, 0x8e, 0xb4, 0x34, 0xbe,
  0x86, 0x2b, 0xa6, 0xbc, 0x9c, 0x4a, 0x4d, 0x3e, 0x5d, 0x34, 0x7e, 0x3d,
  0x5f, 0x1e, 0x78, 0xbe, 0xf0, 0x2e, 0x8a, 0x3f, 0x9f, 0xf4, 0xbd, 0xbf,
  0x35, 0x5f, 0x88, 0xbd, 0x9e, 0x95, 0xbc, 0x3e, 0x11, 0xe5, 0xaa, 0x3e,
  0x64, 0x62, 0x8d, 0x3e, 0xc7, 0xcd, 0x90, 0xbf, 0x1d, 0xc7, 0x13, 0xbf,
  0x9b, 0xeb, 0x9a, 0x3f, 0xcf, 0xf8, 0x1b, 0xbd, 0x6b, 0xed, 0x91, 0x3d,
  0x36, 0xe9, 0x84, 0xbf, 0xc1, 0x98, 0x05, 0xbe, 0x6b, 0x3d, 0xe8, 0xbb,
  0x9e, 0x81, 0x5b, 0x3e, 0xaf, 0x2c, 0x1c, 0x3f, 0x71, 0x27, 0x8c, 0xbf,
  0x35, 0xed, 0x97, 0xbe, 0xf6, 0x2e, 0x24, 0x3e, 0x1c, 0xb4, 0xdb, 0x3e,
  0x78, 0xc0, 0x77, 0x3d, 0x59, 0x6b, 0xd6, 0xbd, 0xe7, 0x15, 0xe2, 0x3d,
  0x8d, 0x22, 0x0d, 0xbf, 0x8e, 0x16, 0xd9, 0xbc, 0x42, 0x58, 0x12, 0xbf,
  0x8e, 0xb4, 0x97, 0x3e, 0x5d, 0x38, 0x8d, 0x3e, 0x2c, 0xf0, 0x71, 0xbd,
  0xc3, 0x96, 0x94, 0x3e, 0x88, 0x89, 0x9a, 0x3f, 0xd2, 0x68, 0x05, 0xbf,
  0xa6, 0xfe, 0xff, 0xff, 0x04, 0x00, 0x00, 0x00, 0xf0, 0x00, 0x00, 0x00,
  0x19, 0xb6, 0xca, 0x3e, 0xf9, 0x0c, 0x03, 0xbe, 0x5e, 0x78, 0x82, 0x3c,
  0xe3, 0xc4, 0x0a, 0x3f, 0x1e, 0xcc, 0xb1, 0xbe, 0xd4, 0xa6, 0x8a, 0xbe,
  0x71, 0x69, 0x9f, 0x3d, 0x06, 0xbd, 0x6a, 0x3f, 0x08, 0xd1, 0x93, 0xbe,
  0xfb, 0x27, 0x29, 0xbf, 0x3f, 0xae, 0x7a, 0xbd, 0x58, 0x57, 0xbd, 0x3e,
  0x88, 0x8a, 0x92, 0xbc, 0xdc, 0x33, 0x19, 0x3f, 0x5f, 0x0c, 0xae, 0xbe,
  0x46, 0xf7, 0x09, 0x3f, 0x3d, 0x4c, 0x2c, 0xbe, 0xd0, 0x84, 0x7f, 0xbf,
  0x28, 0xf8, 0xbf, 0xbe, 0x25, 0x75, 0xc1, 0xbe, 0x6c, 0x70, 0x7c, 0xbf,
  0xb1, 0xbb, 0x2a, 0xbe, 0x8f, 0x8d, 0x09, 0xbe, 0x2f, 0x7f, 0x84, 0x3e,
  0xff, 0xee, 0x5f, 0x3e, 0x2e, 0xe4, 0xa3, 0x3e, 0x76, 0x6b, 0x3d, 0x3f,
  0x05, 0xd2, 0x83, 0xbf, 0x3c, 0xc1, 0x8d, 0xbd, 0xb3, 0x6d, 0x24, 0xbf,
  0x02, 0x91, 0x4f, 0xbd, 0xeb, 0xec, 0x81, 0x3e, 0x35, 0x5f, 0x05, 0xbf,
  0xd6, 0xd5, 0x52, 0x3f, 0xd8, 0xeb, 0x35, 0xbd, 0x5e, 0x92, 0x46, 0xbe,
  0xf1, 0xb2, 0x82, 0xbe, 0x77, 0x11, 0x01, 0x3f, 0xdb, 0x2e, 0xa9, 0x3e,
  0xae, 0x3c, 0xd9, 0xbd, 0x8c, 0xed, 0x41, 0x3f, 0xbb, 0x46, 0x16, 0x3e,
  0x2e, 0x78, 0x48, 0xbd, 0x88, 0x21, 0xc1, 0x3b, 0x23, 0x33, 0x5e, 0x3e,
  0x81, 0x79, 0x51, 0x3f, 0x29, 0xeb, 0x23, 0x3e, 0xc4, 0x8d, 0xae, 0xbd,
  0xd8, 0x2f, 0x60, 0x3e, 0xbb, 0x1b, 0x36, 0x3f, 0xec, 0x6d, 0x26, 0xbf,
  0x22, 0xdd, 0x4c, 0x3f, 0x7b, 0xda, 0x25, 0xbe, 0xdb, 0x75, 0x8b, 0xbd,
  0x9b, 0xd9, 0x4a, 0x3f, 0xb8, 0xfa, 0x42, 0xbf, 0x56, 0x7c, 0xd7, 0xbd,
  0xa9, 0xfd, 0xcb, 0xbd, 0x9d, 0x47, 0x19, 0x3f, 0x5a, 0x0a, 0x77, 0xbf,
  0xa2, 0xff, 0xff, 0xff, 0x04, 0x00, 0x00, 0x00, 0x3c, 0x00, 0x00, 0x00,
  0x0e, 0x66, 0x02, 0x3f, 0x49, 0x80, 0x78, 0x3c, 0x80, 0x48, 0xe3, 0xbe,
  0x89, 0xac, 0x14, 0xbe, 0x0f, 0x8c, 0xc5, 0x3e, 0xa1, 0xd4, 0x7c, 0x3e,
  0x19, 0xf3, 0x5a, 0x3d, 0x94, 0x42, 0xcb, 0x3e, 0x81, 0xe4, 0x9a, 0xbe,
  0xba, 0xa5, 0xf5, 0xbd, 0x47, 0x23, 0x7e, 0xbe, 0x0e, 0x94, 0xe1, 0xbe,
  0x0c, 0x9e, 0x37, 0xbe, 0xc0, 0x6f, 0x51, 0x3e, 0xbd, 0xdd, 0x2a, 0xbe,
  0xea, 0xff, 0xff, 0xff, 0x04, 0x00, 0x00, 0x00, 0x08, 0x00, 0x00, 0x00,
  0xaf, 0xf4, 0x19, 0x3d, 0xaf, 0xf4, 0x19, 0xbd, 0x00, 0x00, 0x06, 0x00,
  0x08, 0x00, 0x04, 0x00, 0x06, 0x00, 0x00, 0x00, 0x04, 0x00, 0x00, 0x00,
  0x20, 0x00, 0x00, 0x00, 0x8b, 0xda, 0xdd, 0xbc, 0x08, 0x88, 0x99, 0xbe,
  0x95, 0x44, 0xf4, 0x3e, 0x77, 0xbb, 0x10, 0x3e, 0x5e, 0xfc, 0x5e, 0x3d,
  0x05, 0x4b, 0xcb, 0x3e, 0xd5, 0xec, 0x6a, 0xbd, 0x82, 0xf2, 0x9d, 0xbd,
  0x20, 0xfb, 0xff, 0xff, 0x24, 0xfb, 0xff, 0xff, 0x0f, 0x00, 0x00, 0x00,
  0x4d, 0x4c, 0x49, 0x52, 0x20, 0x43, 0x6f, 0x6e, 0x76, 0x65, 0x72, 0x74,
  0x65, 0x64, 0x2e, 0x00, 0x01, 0x00, 0x00, 0x00, 0x14, 0x00, 0x00, 0x00,
  0x00, 0x00, 0x0e, 0x00, 0x18, 0x00, 0x14, 0x00, 0x10, 0x00, 0x0c, 0x00,
  0x08, 0x00, 0x04, 0x00, 0x0e, 0x00, 0x00, 0x00, 0x14, 0x00, 0x00, 0x00,
  0x1c, 0x00, 0x00, 0x00, 0xd8, 0x00, 0x00, 0x00, 0xdc, 0x00, 0x00, 0x00,
  0xe0, 0x00, 0x00, 0x00, 0x04, 0x00, 0x00, 0x00, 0x6d, 0x61, 0x69, 0x6e,
  0x00, 0x00, 0x00, 0x00, 0x03, 0x00, 0x00, 0x00, 0x80, 0x00, 0x00, 0x00,
  0x38, 0x00, 0x00, 0x00, 0x04, 0x00, 0x00, 0x00, 0x9a, 0xff, 0xff, 0xff,
  0x10, 0x00, 0x00, 0x00, 0x00, 0x00, 0x00, 0x08, 0x0c, 0x00, 0x00, 0x00,
  0x10, 0x00, 0x00, 0x00, 0x9c, 0xfb, 0xff, 0xff, 0x01, 0x00, 0x00, 0x00,
  0x09, 0x00, 0x00, 0x00, 0x03, 0x00, 0x00, 0x00, 0x08, 0x00, 0x00, 0x00,
  0x06, 0x00, 0x00, 0x00, 0x02, 0x00, 0x00, 0x00, 0xca, 0xff, 0xff, 0xff,
  0x10, 0x00, 0x00, 0x00, 0x00, 0x00, 0x00, 0x08, 0x10, 0x00, 0x00, 0x00,
  0x14, 0x00, 0x00, 0x00, 0xba, 0xff, 0xff, 0xff, 0x00, 0x00, 0x00, 0x01,
  0x01, 0x00, 0x00, 0x00, 0x08, 0x00, 0x00, 0x00, 0x03, 0x00, 0x00, 0x00,
  0x07, 0x00, 0x00, 0x00, 0x05, 0x00, 0x00, 0x00, 0x01, 0x00, 0x00, 0x00,
  0x00, 0x00, 0x0e, 0x00, 0x16, 0x00, 0x00, 0x00, 0x10, 0x00, 0x0c, 0x00,
  0x0b, 0x00, 0x04, 0x00, 0x0e, 0x00, 0x00, 0x00, 0x18, 0x00, 0x00, 0x00,
  0x00, 0x00, 0x00, 0x08, 0x18, 0x00, 0x00, 0x00, 0x1c, 0x00, 0x00, 0x00,
  0x00, 0x00, 0x06, 0x00, 0x08, 0x00, 0x07, 0x00, 0x06, 0x00, 0x00, 0x00,
  0x00, 0x00, 0x00, 0x01, 0x01, 0x00, 0x00, 0x00, 0x07, 0x00, 0x00, 0x00,
  0x03, 0x00, 0x00, 0x00, 0x00, 0x00, 0x00, 0x00, 0x04, 0x00, 0x00, 0x00,
  0x03, 0x00, 0x00, 0x00, 0x01, 0x00, 0x00, 0x00, 0x09, 0x00, 0x00, 0x00,
  0x01, 0x00, 0x00, 0x00, 0x00, 0x00, 0x00, 0x00, 0x0a, 0x00, 0x00, 0x00,
  0x8c, 0x03, 0x00, 0x00, 0x1c, 0x03, 0x00, 0x00, 0xac, 0x02, 0x00, 0x00,
  0x58, 0x02, 0x00, 0x00, 0x10, 0x02, 0x00, 0x00, 0xc4, 0x01, 0x00, 0x00,
  0x78, 0x01, 0x00, 0x00, 0xf0, 0x00, 0x00, 0x00, 0x60, 0x00, 0x00, 0x00,
  0x04, 0x00, 0x00, 0x00, 0xb2, 0xfc, 0xff, 0xff, 0x00, 0x00, 0x00, 0x01,
  0x14, 0x00, 0x00, 0x00, 0x1c, 0x00, 0x00, 0x00, 0x1c, 0x00, 0x00, 0x00,
  0x0a, 0x00, 0x00, 0x00, 0x34, 0x00, 0x00, 0x00, 0x02, 0x00, 0x00, 0x00,
  0xff, 0xff, 0xff, 0xff, 0x02, 0x00, 0x00, 0x00, 0x9c, 0xfc, 0xff, 0xff,
  0x19, 0x00, 0x00, 0x00, 0x53, 0x74, 0x61, 0x74, 0x65, 0x66, 0x75, 0x6c,
  0x50, 0x61, 0x72, 0x74, 0x69, 0x74, 0x69, 0x6f, 0x6e, 0x65, 0x64, 0x43,
  0x61, 0x6c, 0x6c, 0x3a, 0x30, 0x00, 0x00, 0x00, 0x02, 0x00, 0x00, 0x00,
  0x01, 0x00, 0x00, 0x00, 0x02, 0x00, 0x00, 0x00, 0x0a, 0xfd, 0xff, 0xff,
  0x00, 0x00, 0x00, 0x01, 0x14, 0x00, 0x00, 0x00, 0x1c, 0x00, 0x00, 0x00,
  0x1c, 0x00, 0x00, 0x00, 0x09, 0x00, 0x00, 0x00, 0x68, 0x00, 0x00, 0x00,
  0x02, 0x00, 0x00, 0x00, 0xff, 0xff, 0xff, 0xff, 0x08, 0x00, 0x00, 0x00,
  0xf4, 0xfc, 0xff, 0xff, 0x4c, 0x00, 0x00, 0x00, 0x73, 0x65, 0x71, 0x75,
  0x65, 0x6e, 0x74, 0x69, 0x61, 0x6c, 0x2f, 0x64, 0x65, 0x6e, 0x73, 0x65,
  0x5f, 0x31, 0x2f, 0x4d, 0x61, 0x74, 0x4d, 0x75, 0x6c, 0x3b, 0x73, 0x65,
  0x71, 0x75, 0x65, 0x6e, 0x74, 0x69, 0x61, 0x6c, 0x2f, 0x64, 0x65, 0x6e,
  0x73, 0x65, 0x5f, 0x31, 0x2f, 0x52, 0x65, 0x6c, 0x75, 0x3b, 0x73, 0x65,
  0x71, 0x75, 0x65, 0x6e, 0x74, 0x69, 0x61, 0x6c, 0x2f, 0x64, 0x65, 0x6e,
  0x73, 0x65, 0x5f, 0x31, 0x2f, 0x42, 0x69, 0x61, 0x73, 0x41, 0x64, 0x64,
  0x00, 0x00, 0x00, 0x00, 0x02, 0x00, 0x00, 0x00, 0x01, 0x00, 0x00, 0x00,
  0x08, 0x00, 0x00, 0x00, 0x96, 0xfd, 0xff, 0xff, 0x00, 0x00, 0x00, 0x01,
  0x14, 0x00, 0x00, 0x00, 0x1c, 0x00, 0x00, 0x00, 0x1c, 0x00, 0x00, 0x00,
  0x08, 0x00, 0x00, 0x00, 0x60, 0x00, 0x00, 0x00, 0x02, 0x00, 0x00, 0x00,
  0xff, 0xff, 0xff, 0xff, 0x0f, 0x00, 0x00, 0x00, 0x80, 0xfd, 0xff, 0xff,
  0x46, 0x00, 0x00, 0x00, 0x73, 0x65, 0x71, 0x75, 0x65, 0x6e, 0x74, 0x69,
  0x61, 0x6c, 0x2f, 0x64, 0x65, 0x6e, 0x73, 0x65, 0x2f, 0x4d, 0x61, 0x74,
  0x4d, 0x75, 0x6c, 0x3b, 0x73, 0x65, 0x71, 0x75, 0x65, 0x6e, 0x74, 0x69,
  0x61, 0x6c, 0x2f, 0x64, 0x65, 0x6e, 0x73, 0x65, 0x2f, 0x52, 0x65, 0x6c,
  0x75, 0x3b, 0x73, 0x65, 0x71, 0x75, 0x65, 0x6e, 0x74, 0x69, 0x61, 0x6c,
  0x2f, 0x64, 0x65, 0x6e, 0x73, 0x65, 0x2f, 0x42, 0x69, 0x61, 0x73, 0x41,
  0x64, 0x64, 0x00, 0x00, 0x02, 0x00, 0x00, 0x00, 0x01, 0x00, 0x00, 0x00,
  0x0f, 0x00, 0x00, 0x00, 0x86, 0xfe, 0xff, 0xff, 0x00, 0x00, 0x00, 0x01,
  0x10, 0x00, 0x00, 0x00, 0x10, 0x00, 0x00, 0x00, 0x07, 0x00, 0x00, 0x00,
  0x28, 0x00, 0x00, 0x00, 0xf4, 0xfd, 0xff, 0xff, 0x19, 0x00, 0x00, 0x00,
  0x73, 0x65, 0x71, 0x75, 0x65, 0x6e, 0x74, 0x69, 0x61, 0x6c, 0x2f, 0x64,
  0x65, 0x6e, 0x73, 0x65, 0x5f, 0x32, 0x2f, 0x4d, 0x61, 0x74, 0x4d, 0x75,
  0x6c, 0x00, 0x00, 0x00, 0x02, 0x00, 0x00, 0x00, 0x02, 0x00, 0x00, 0x00,
  0x08, 0x00, 0x00, 0x00, 0xce, 0xfe, 0xff, 0xff, 0x00, 0x00, 0x00, 0x01,
  0x10, 0x00, 0x00, 0x00, 0x10, 0x00, 0x00, 0x00, 0x06, 0x00, 0x00, 0x00,
  0x28, 0x00, 0x00, 0x00, 0x3c, 0xfe, 0xff, 0xff, 0x19, 0x00, 0x00, 0x00,
  0x73, 0x65, 0x71, 0x75, 0x65, 0x6e, 0x74, 0x69, 0x61, 0x6c, 0x2f, 0x64,
  0x65, 0x6e, 0x73, 0x65, 0x5f, 0x31, 0x2f, 0x4d, 0x61, 0x74, 0x4d, 0x75,
  0x6c, 0x00, 0x00, 0x00, 0x02, 0x00, 0x00, 0x00, 0x08, 0x00, 0x00, 0x00,
  0x0f, 0x00, 0x00, 0x00, 0x16, 0xff, 0xff, 0xff, 0x00, 0x00, 0x00, 0x01,
  0x10, 0x00, 0x00, 0x00, 0x10, 0x00, 0x00, 0x00, 0x05, 0x00, 0x00, 0x00,
  0x24, 0x00, 0x00, 0x00, 0x84, 0xfe, 0xff, 0xff, 0x17, 0x00, 0x00, 0x00,
  0x73, 0x65, 0x71, 0x75, 0x65, 0x6e, 0x74, 0x69, 0x61, 0x6c, 0x2f, 0x64,
  0x65, 0x6e, 0x73, 0x65, 0x2f, 0x4d, 0x61, 0x74, 0x4d, 0x75, 0x6c, 0x00,
  0x02, 0x00, 0x00, 0x00, 0x0f, 0x00, 0x00, 0x00, 0x04, 0x00, 0x00, 0x00,
  0x5a, 0xff, 0xff, 0xff, 0x00, 0x00, 0x00, 0x01, 0x10, 0x00, 0x00, 0x00,
  0x10, 0x00, 0x00, 0x00, 0x04, 0x00, 0x00, 0x00, 0x34, 0x00, 0x00, 0x00,
  0xc8, 0xfe, 0xff, 0xff, 0x27, 0x00, 0x00, 0x00, 0x73, 0x65, 0x71, 0x75,
  0x65, 0x6e, 0x74, 0x69, 0x61, 0x6c, 0x2f, 0x64, 0x65, 0x6e, 0x73, 0x65,
  0x2f, 0x42, 0x69, 0x61, 0x73, 0x41, 0x64, 0x64, 0x2f, 0x52, 0x65, 0x61,
  0x64, 0x56, 0x61, 0x72, 0x69, 0x61, 0x62, 0x6c, 0x65, 0x4f, 0x70, 0x00,
  0x01, 0x00, 0x00, 0x00, 0x0f, 0x00, 0x00, 0x00, 0xaa, 0xff, 0xff, 0xff,
  0x00, 0x00, 0x00, 0x01, 0x10, 0x00, 0x00, 0x00, 0x10, 0x00, 0x00, 0x00,
  0x03, 0x00, 0x00, 0x00, 0x38, 0x00, 0x00, 0x00, 0x18, 0xff, 0xff, 0xff,
  0x29, 0x00, 0x00, 0x00, 0x73, 0x65, 0x71, 0x75, 0x65, 0x6e, 0x74, 0x69,
  0x61, 0x6c, 0x2f, 0x64, 0x65, 0x6e, 0x73, 0x65, 0x5f, 0x32, 0x2f, 0x42,
  0x69, 0x61, 0x73, 0x41, 0x64, 0x64, 0x2f, 0x52, 0x65, 0x61, 0x64, 0x56,
  0x61, 0x72, 0x69, 0x61, 0x62, 0x6c, 0x65, 0x4f, 0x70, 0x00, 0x00, 0x00,
  0x01, 0x00, 0x00, 0x00, 0x02, 0x00, 0x00, 0x00, 0x00, 0x00, 0x16, 0x00,
  0x18, 0x00, 0x14, 0x00, 0x00, 0x00, 0x10, 0x00, 0x0c, 0x00, 0x08, 0x00,
  0x00, 0x00, 0x00, 0x00, 0x00, 0x00, 0x07, 0x00, 0x16, 0x00, 0x00, 0x00,
  0x00, 0x00, 0x00, 0x01, 0x10, 0x00, 0x00, 0x00, 0x10, 0x00, 0x00, 0x00,
  0x02, 0x00, 0x00, 0x00, 0x38, 0x00, 0x00, 0x00, 0x84, 0xff, 0xff, 0xff,
  0x29, 0x00, 0x00, 0x00, 0x73, 0x65, 0x71, 0x75, 0x65, 0x6e, 0x74, 0x69,
  0x61, 0x6c, 0x2f, 0x64, 0x65, 0x6e, 0x73, 0x65, 0x5f, 0x31, 0x2f, 0x42,
  0x69, 0x61, 0x73, 0x41, 0x64, 0x64, 0x2f, 0x52, 0x65, 0x61, 0x64, 0x56,
  0x61, 0x72, 0x69, 0x61, 0x62, 0x6c, 0x65, 0x4f, 0x70, 0x00, 0x00, 0x00,
  0x01, 0x00, 0x00, 0x00, 0x08, 0x00, 0x00, 0x00, 0x00, 0x00, 0x16, 0x00,
  0x1c, 0x00, 0x18, 0x00, 0x00, 0x00, 0x14, 0x00, 0x10, 0x00, 0x0c, 0x00,
  0x00, 0x00, 0x00, 0x00, 0x08, 0x00, 0x07, 0x00, 0x16, 0x00, 0x00, 0x00,
  0x00, 0x00, 0x00, 0x01, 0x14, 0x00, 0x00, 0x00, 0x20, 0x00, 0x00, 0x00,
  0x20, 0x00, 0x00, 0x00, 0x01, 0x00, 0x00, 0x00, 0x3c, 0x00, 0x00, 0x00,
  0x02, 0x00, 0x00, 0x00, 0xff, 0xff, 0xff, 0xff, 0x04, 0x00, 0x00, 0x00,
  0x04, 0x00, 0x04, 0x00, 0x04, 0x00, 0x00, 0x00, 0x1d, 0x00, 0x00, 0x00,
  0x73, 0x65, 0x72, 0x76, 0x69, 0x6e, 0x67, 0x5f, 0x64, 0x65, 0x66, 0x61,
  0x75, 0x6c, 0x74, 0x5f, 0x64, 0x65, 0x6e, 0x73, 0x65, 0x5f, 0x69, 0x6e,
  0x70, 0x75, 0x74, 0x3a, 0x30, 0x00, 0x00, 0x00, 0x02, 0x00, 0x00, 0x00,
  0x01, 0x00, 0x00, 0x00, 0x04, 0x00, 0x00, 0x00, 0x01, 0x00, 0x00, 0x00,
  0x10, 0x00, 0x00, 0x00, 0x0c, 0x00, 0x0c, 0x00, 0x0b, 0x00, 0x00, 0x00,
  0x00, 0x00, 0x04, 0x00, 0x0c, 0x00, 0x00, 0x00, 0x09, 0x00, 0x00, 0x00,
  0x00, 0x00, 0x00, 0x09
};

unsigned int load_model_tflite_len = 2764;
